<pad>	0
<s>	0
</s>	0
<unk>	0
▁i	-0
▁a	-1
▁t	-2
▁th	-3
▁s	-4
er	-5
▁g	-6
▁w	-7
in	-8
at	-9
on	-10
▁it	-11
es	-12
▁b	-13
▁m	-14
or	-15
oo	-16
▁n	-17
▁f	-18
pp	-19
▁c	-20
▁p	-21
▁l	-22
re	-23
an	-24
▁app	-25
ing	-26
▁d	-27
▁u	-28
le	-29
▁the	-30
ou	-31
▁an	-32
▁goo	-33
▁h	-34
ic	-35
▁to	-36
ve	-37
is	-38
ll	-39
▁o	-40
ver	-41
▁e	-42
▁good	-43
se	-44
▁and	-45
▁is	-46
ed	-47
en	-48
st	-49
▁this	-50
ow	-51
ar	-52
it	-53
ot	-54
om	-55
▁y	-56
▁in	-57
very	-58
..	-59
ay	-60
ice	-61
▁lo	-62
ad	-63
▁for	-64
ke	-65
as	-66
ut	-67
▁on	-68
et	-69
▁you	-70
am	-71
▁wh	-72
ion	-73
▁very	-74
▁up	-75
▁use	-76
▁of	-77
▁re	-78
▁love	-79
▁my	-80
▁st	-81
est	-82
▁nice	-83
▁not	-84
ly	-85
ate	-86
all	-87
▁be	-88
▁wor	-89
ul	-90
ro	-91
ac	-92
▁but	-93
▁li	-94
al	-95
▁ha	-96
▁r	-97
reat	-98
▁can	-99
id	-100
▁pl	-101
▁great	-102
▁upd	-103
▁ne	-104
lo	-105
""	-106
▁work	-107
im	-108
ome	-109
ter	-110
▁best	-111
▁su	-112
el	-113
▁so	-114
ch	-115
ld	-116
▁j	-117
▁do	-118
▁like	-119
ble	-120
ct	-121
ith	-122
th	-123
▁that	-124
ess	-125
gle	-126
▁me	-127
▁k	-128
ag	-129
▁with	-130
▁have	-131
▁google	-132
▁play	-133
▁than	-134
ful	-135
▁update	-136
own	-137
one	-138
▁its	-139
▁all	-140
...	-141
ust	-142
un	-143
▁down	-144
▁v	-145
load	-146
▁de	-147
nt	-148
il	-149
!!	-150
▁se	-151
ant	-152
▁aw	-153
ore	-154
ks	-155
▁al	-156
ould	-157
ast	-158
▁ph	-159
ally	-160
▁ex	-161
▁download	-162
ent	-163
per	-164
▁sh	-165
ation	-166
ig	-167
▁mu	-168
▁ch	-169
ase	-170
ill	-171
▁apps	-172
▁as	-173
▁no	-174
▁ad	-175
▁con	-176
out	-177
▁need	-178
▁gam	-179
ur	-180
▁awes	-181
▁what	-182
▁fi	-183
▁awesome	-184
▁pro	-185
▁am	-186
▁ma	-187
ce	-188
▁we	-189
▁just	-190
▁ok	-191
▁phone	-192
▁useful	-193
ere	-194
▁does	-195
lease	-196
ect	-197
▁us	-198
▁ser	-199
▁don	-200
▁tim	-201
▁tr	-202
▁per	-203
▁please	-204
▁un	-205
▁op	-206
▁mo	-207
▁any	-208
▁when	-209
op	-210
▁fr	-211
▁or	-212
▁if	-213
▁get	-214
▁te	-215
▁every	-216
ack	-217
▁one	-218
▁hel	-219
▁eas	-220
if	-221
▁help	-222
▁serv	-223
ort	-224
um	-225
""""	-226
▁ta	-227
ool	-228
gr	-229
▁com	-230
▁im	-231
▁are	-232
▁fe	-233
ong	-234
▁sp	-235
▁ke	-236
▁time	-237
age	-238
▁super	-239
ive	-240
▁much	-241
▁add	-242
ind	-243
qu	-244
ays	-245
ra	-246
ep	-247
▁really	-248
ther	-249
us	-250
▁easy	-251
▁thanks	-252
▁more	-253
ple	-254
▁other	-255
ication	-256
....	-257
▁man	-258
▁bet	-259
▁your	-260
ace	-261
and	-262
ht	-263
▁was	-264
▁has	-265
au	-266
able	-267
▁go	-268
▁works	-269
end	-270
ting	-271
ck	-272
az	-273
▁want	-274
▁cool	-275
os	-276
▁star	-277
lent	-278
▁inst	-279
▁fix	-280
▁would	-281
▁too	-282
▁en	-283
▁better	-284
▁updat	-285
ull	-286
▁now	-287
▁bad	-288
▁only	-289
ause	-290
tion	-291
▁ab	-292
▁at	-293
ang	-294
ud	-295
▁from	-296
▁there	-297
▁sim	-298
ure	-299
▁game	-300
cc	-301
▁bec	-302
▁will	-303
ide	-304
▁exc	-305
fect	-306
▁some	-307
sion	-308
ven	-309
▁mess	-310
▁why	-311
▁how	-312
ist	-313
▁new	-314
so	-315
ellent	-316
▁keep	-317
▁amaz	-318
▁won	-319
▁1	-320
ard	-321
ers	-322
roid	-323
ir	-324
ain	-325
ash	-326
▁excellent	-327
nd	-328
▁amazing	-329
ub	-330
▁ver	-331
▁em	-332
ine	-333
ick	-334
ail	-335
thing	-336
▁sc	-337
oug	-338
ity	-339
▁sa	-340
▁android	-341
▁games	-342
blem	-343
▁doesn	-344
▁because	-345
ap	-346
▁problem	-347
ices	-348
▁imp	-349
gram	-350
▁feat	-351
od	-352
▁even	-353
▁perfect	-354
ri	-355
em	-356
▁working	-357
king	-358
pl	-359
▁acc	-360
▁5	-361
kes	-362
▁ever	-363
▁back	-364
▁thing	-365
ight	-366
our	-367
▁2	-368
ile	-369
▁kn	-370
▁af	-371
▁well	-372
ite	-373
▁option	-374
▁thank	-375
ie	-376
hing	-377
▁loved	-378
▁out	-379
▁(	-380
▁fre	-381
sic	-382
app	-383
▁make	-384
▁qu	-385
ah	-386
are	-387
▁open	-388
▁service	-389
▁fast	-390
up	-391
▁call	-392
ish	-393
▁lot	-394
▁know	-395
ink	-396
▁sl	-397
▁music	-398
ab	-399
▁cl	-400
▁cont	-401
▁dev	-402
▁could	-403
der	-404
oy	-405
▁after	-406
""""""""	-407
▁.	-408
▁song	-409
ia	-410
act	-411
ear	-412
▁by	-413
▁set	-414
ol	-415
ound	-416
▁tele	-417
▁space	-418
▁using	-419
iz	-420
▁version	-421
!!!	-422
av	-423
▁simple	-424
ways	-425
▁also	-426
▁dis	-427
ough	-428
ame	-429
ory	-430
▁loo	-431
▁telegram	-432
▁vide	-433
▁many	-434
▁appl	-435
te	-436
less	-437
▁fun	-438
▁find	-439
▁always	-440
▁services	-441
▁application	-442
ment	-443
▁run	-444
ving	-445
ube	-446
ures	-447
▁slow	-448
▁messag	-449
▁inter	-450
▁he	-451
▁free	-452
▁still	-453
ult	-454
reen	-455
▁sm	-456
▁used	-457
▁think	-458
led	-459
▁bu	-460
▁try	-461
▁way	-462
▁ag	-463
oooo	-464
▁without	-465
▁off	-466
atter	-467
▁rec	-468
ue	-469
▁supp	-470
▁po	-471
▁then	-472
▁som	-473
▁install	-474
ction	-475
▁hate	-476
ak	-477
▁pre	-478
▁should	-479
ous	-480
▁somet	-481
her	-482
ss	-483
de	-484
ge	-485
ire	-486
▁cr	-487
▁res	-488
▁had	-489
ich	-490
▁br	-491
ip	-492
▁show	-493
▁been	-494
▁pr	-495
!!!!	-496
mo	-497
▁see	-498
▁about	-499
▁them	-500
▁mem	-501
▁hi	-502
▁screen	-503
▁they	-504
▁dat	-505
ik	-506
▁batter	-507
inst	-508
▁most	-509
orm	-510
▁video	-511
▁yout	-512
▁:	-513
ount	-514
▁ar	-515
▁&	-516
ator	-517
▁whats	-518
▁everything	-519
▁happ	-520
▁notif	-521
▁battery	-522
▁did	-523
ff	-524
▁jo	-525
▁gr	-526
▁le	-527
▁dele	-528
▁youtube	-529
▁store	-530
iv	-531
▁3	-532
art	-533
▁takes	-534
▁give	-535
ied	-536
▁let	-537
▁over	-538
▁chang	-539
err	-540
▁iss	-541
full	-542
▁songs	-543
ated	-544
▁wow	-545
▁cam	-546
arch	-547
▁sec	-548
▁needs	-549
▁notification	-550
ted	-551
▁crash	-552
▁read	-553
▁full	-554
era	-555
▁emul	-556
▁gu	-557
▁which	-558
gg	-559
▁search	-560
▁z	-561
▁support	-562
▁bl	-563
▁features	-564
▁data	-565
esse	-566
▁again	-567
ry	-568
▁pe	-569
nect	-570
▁des	-571
▁memory	-572
▁whatsapp	-573
▁stor	-574
ning	-575
▁nothing	-576
form	-577
▁comp	-578
cks	-579
▁sy	-580
▁stars	-581
▁helpful	-582
alled	-583
▁feature	-584
▁aut	-585
▁old	-586
▁long	-587
▁emulator	-588
▁chat	-589
▁ann	-590
pe	-591
▁camera	-592
sh	-593
ass	-594
▁4	-595
▁say	-596
▁setting	-597
▁fine	-598
xt	-599
▁updates	-600
ating	-601
▁int	-602
▁cant	-603
▁sto	-604
ies	-605
oying	-606
??	-607
error	-608
velo	-609
▁connect	-610
ach	-611
tt	-612
ade	-613
▁anything	-614
▁uninst	-615
▁spe	-616
▁inc	-617
▁updated	-618
ible	-619
ci	-620
iew	-621
ng	-622
fe	-623
fer	-624
▁device	-625
▁ind	-626
▁develo	-627
▁never	-628
▁-	-629
▁error	-630
▁ed	-631
▁impro	-632
ever	-633
we	-634
▁peop	-635
▁pic	-636
▁stop	-637
▁storage	-638
▁list	-639
▁wast	-640
▁file	-641
▁fo	-642
wor	-643
oice	-644
▁able	-645
▁ps	-646
▁keeps	-647
▁people	-648
ha	-649
ize	-650
▁annoying	-651
li	-652
▁""""""""	-653
ary	-654
▁job	-655
▁act	-656
▁says	-657
00	-658
▁account	-659
not	-660
▁fil	-661
▁sin	-662
▁far	-663
▁messages	-664
▁who	-665
▁""	-666
▁import	-667
▁wonder	-668
ys	-669
▁la	-670
pt	-671
ans	-672
▁function	-673
▁dra	-674
ign	-675
ton	-676
umb	-677
▁improve	-678
ps	-679
ann	-680
▁got	-681
aj	-682
▁superb	-683
▁fant	-684
ph	-685
▁mob	-686
.....	-687
▁year	-688
▁useless	-689
aa	-690
▁user	-691
▁fir	-692
astic	-693
▁access	-694
▁tried	-695
▁cons	-696
▁since	-697
▁cle	-698
ose	-699
int	-700
▁save	-701
ually	-702
▁dif	-703
ient	-704
▁ads	-705
▁happy	-706
ib	-707
▁first	-708
▁plz	-709
▁same	-710
▁phot	-711
▁take	-712
▁send	-713
▁load	-714
oss	-715
▁fantastic	-716
ft	-717
urn	-718
▁message	-719
▁downloading	-720
ked	-721
▁updating	-722
▁sucks	-723
iend	-724
▁big	-725
▁min	-726
▁perm	-727
▁stick	-728
▁delete	-729
▁something	-730
ee	-731
▁av	-732
▁friend	-733
ious	-734
▁requ	-735
▁must	-736
dd	-737
esh	-738
▁messe	-739
▁lit	-740
▁bug	-741
▁button	-742
▁co	-743
other	-744
ows	-745
▁hop	-746
▁mobile	-747
ise	-748
▁dont	-749
▁important	-750
han	-751
ung	-752
bo	-753
▁mar	-754
▁seem	-755
ply	-756
ility	-757
▁messaging	-758
fore	-759
▁last	-760
▁remo	-761
▁voice	-762
▁things	-763
▁developer	-764
▁pict	-765
▁tell	-766
▁change	-767
io	-768
▁x	-769
▁settings	-770
ian	-771
ook	-772
▁issue	-773
ily	-774
iss	-775
▁stopp	-776
ission	-777
▁waste	-778
ond	-779
▁ap	-780
▁sam	-781
▁sometim	-782
▁uninstall	-783
▁usefull	-784
mm	-785
rr	-786
▁times	-787
▁files	-788
▁drain	-789
▁makes	-790
▁blo	-791
▁cannot	-792
▁wish	-793
▁getting	-794
▁wonderful	-795
▁looking	-796
▁ro	-797
▁...	-798
▁che	-799
hh	-800
uck	-801
▁psp	-802
▁yes	-803
▁right	-804
▁few	-805
▁before	-806
▁day	-807
▁lat	-808
ala	-809
nger	-810
▁email	-811
▁while	-812
▁where	-813
▁intern	-814
▁wr	-815
▁permission	-816
▁having	-817
▁wa	-818
edia	-819
▁remove	-820
▁pers	-821
▁quick	-822
omm	-823
tty	-824
▁def	-825
▁though	-826
ood	-827
▁ram	-828
▁6	-829
ial	-830
▁guys	-831
itch	-832
▁fav	-833
▁hig	-834
▁edit	-835
▁life	-836
get	-837
▁worst	-838
▁pretty	-839
▁size	-840
▁found	-841
▁contact	-842
▁hope	-843
▁turn	-844
ute	-845
▁sometimes	-846
▁years	-847
oot	-848
cess	-849
unch	-850
▁stup	-851
▁downloaded	-852
aw	-853
umar	-854
▁inform	-855
▁messenger	-856
▁stupid	-857
▁such	-858
▁stopped	-859
tle	-860
▁grou	-861
▁fl	-862
▁here	-863
▁didn	-864
▁contro	-865
▁cra	-866
▁lag	-867
▁hard	-868
▁ty	-869
▁start	-870
ommend	-871
▁may	-872
▁consum	-873
be	-874
▁recommend	-875
uff	-876
▁aws	-877
xy	-878
▁sw	-879
▁mon	-880
▁rem	-881
▁comm	-882
▁helps	-883
▁pri	-884
▁ter	-885
ately	-886
pr	-887
▁another	-888
▁being	-889
view	-890
▁into	-891
▁installed	-892
ones	-893
▁key	-894
ence	-895
▁gud	-896
ality	-897
▁hand	-898
▁clo	-899
▁high	-900
▁look	-901
▁!	-902
▁bot	-903
▁unt	-904
du	-905
ese	-906
▁fin	-907
**	-908
▁tw	-909
line	-910
▁bar	-911
tc	-912
▁miss	-913
▁little	-914
sung	-915
▁needed	-916
mail	-917
▁yet	-918
▁options	-919
▁bor	-920
▁pls	-921
atch	-922
ource	-923
▁col	-924
▁text	-925
▁7	-926
ya	-927
read	-928
▁..	-929
▁fa	-930
ues	-931
▁ow	-932
▁notifications	-933
les	-934
▁ext	-935
▁world	-936
▁speed	-937
▁comple	-938
).	-939
▁crashes	-940
▁card	-941
▁done	-942
ance	-943
▁rest	-944
ware	-945
▁our	-946
▁kind	-947
▁avail	-948
▁god	-949
▁samsung	-950
play	-951
▁thr	-952
▁made	-953
▁sol	-954
▁mode	-955
▁net	-956
▁el	-957
▁liked	-958
▁control	-959
01	-960
▁'	-961
aut	-962
.1	-963
▁aap	-964
▁launch	-965
▁lovely	-966
ustom	-967
▁until	-968
stem	-969
▁tal	-970
▁problems	-971
wh	-972
▁mult	-973
ages	-974
▁going	-975
▁bud	-976
▁under	-977
▁raj	-978
▁stickers	-979
▁custom	-980
▁log	-981
▁differ	-982
bs	-983
▁numb	-984
tim	-985
▁allow	-986
oooooooo	-987
ual	-988
▁:)	-989
▁table	-990
▁available	-991
ode	-992
▁trying	-993
▁priv	-994
▁review	-995
▁word	-996
sel	-997
▁kumar	-998
con	-999
▁sure	-1000
▁system	-1001
vel	-1002
▁fold	-1003
nc	-1004
ery	-1005
▁exp	-1006
alaxy	-1007
▁information	-1008
ii	-1009
▁hell	-1010
▁running	-1011
ght	-1012
▁real	-1013
▁tablet	-1014
ens	-1015
▁latest	-1016
▁simply	-1017
▁calling	-1018
▁pop	-1019
most	-1020
▁ho	-1021
▁resp	-1022
▁tool	-1023
▁top	-1024
▁galaxy	-1025
▁pp	-1026
▁sd	-1027
▁ins	-1028
▁fixed	-1029
▁enj	-1030
▁seems	-1031
▁photos	-1032
▁playing	-1033
ason	-1034
▁worked	-1035
ments	-1036
▁okay	-1037
▁interf	-1038
▁person	-1039
ord	-1040
▁10	-1041
▁ye	-1042
▁sk	-1043
▁sing	-1044
ifi	-1045
▁stuff	-1046
▁sele	-1047
▁poss	-1048
▁these	-1049
ower	-1050
▁ass	-1051
▁issues	-1052
▁prov	-1053
fort	-1054
▁put	-1055
▁proper	-1056
▁source	-1057
▁almost	-1058
stand	-1059
▁multi	-1060
▁bo	-1061
self	-1062
▁once	-1063
▁check	-1064
ank	-1065
▁different	-1066
▁es	-1067
▁reason	-1068
▁beaut	-1069
atic	-1070
▁bit	-1071
annel	-1072
▁sound	-1073
▁devices	-1074
▁art	-1075
▁shows	-1076
▁complete	-1077
▁interface	-1078
kk	-1079
▁ca	-1080
▁....	-1081
▁lol	-1082
▁come	-1083
sol	-1084
▁awsome	-1085
▁part	-1086
orre	-1087
▁light	-1088
ark	-1089
ead	-1090
▁ur	-1091
▁tot	-1092
▁phones	-1093
ix	-1094
ats	-1095
▁etc	-1096
▁channel	-1097
its	-1098
▁group	-1099
▁small	-1100
ne	-1101
▁ا	-1102
ath	-1103
ooth	-1104
▁wifi	-1105
▁boring	-1106
▁mb	-1107
▁enough	-1108
▁favor	-1109
▁budd	-1110
▁those	-1111
▁making	-1112
lud	-1113
▁wik	-1114
▁wid	-1115
▁program	-1116
▁number	-1117
▁videos	-1118
me	-1119
▁poor	-1120
▁talk	-1121
▁pass	-1122
yc	-1123
acy	-1124
.0	-1125
▁exact	-1126
arm	-1127
▁absol	-1128
▁through	-1129
▁aud	-1130
▁feel	-1131
▁ui	-1132
word	-1133
▁gra	-1134
estion	-1135
▁design	-1136
▁pictures	-1137
day	-1138
▁fro	-1139
▁ide	-1140
▁internet	-1141
oud	-1142
board	-1143
▁their	-1144
▁actually	-1145
ative	-1146
▁absolute	-1147
ced	-1148
ves	-1149
iful	-1150
ption	-1151
▁gl	-1152
▁id	-1153
▁view	-1154
cept	-1155
▁else	-1156
no	-1157
cast	-1158
▁bro	-1159
▁end	-1160
▁upload	-1161
▁auto	-1162
▁enjoy	-1163
▁users	-1164
ives	-1165
▁plus	-1166
▁backup	-1167
▁upgr	-1168
iting	-1169
back	-1170
more	-1171
▁two	-1172
▁crap	-1173
▁att	-1174
▁hai	-1175
▁listen	-1176
▁however	-1177
▁recent	-1178
ts	-1179
▁gall	-1180
▁calls	-1181
▁mr	-1182
▁move	-1183
▁clear	-1184
▁const	-1185
▁launcher	-1186
▁permissions	-1187
▁days	-1188
▁includ	-1189
ition	-1190
▁creat	-1191
work	-1192
▁exper	-1193
▁ب	-1194
ume	-1195
▁next	-1196
▁autom	-1197
▁secure	-1198
▁lar	-1199
▁conf	-1200
▁sync	-1201
ault	-1202
▁lock	-1203
▁switch	-1204
▁older	-1205
▁missing	-1206
zz	-1207
▁widget	-1208
▁favorite	-1209
▁own	-1210
▁disable	-1211
ics	-1212
▁lots	-1213
▁sugg	-1214
▁faster	-1215
min	-1216
▁os	-1217
▁point	-1218
▁properly	-1219
👍👍	-1220
!!!!!!!!	-1221
▁hu	-1222
▁gets	-1223
▁audio	-1224
▁power	-1225
▁default	-1226
book	-1227
▁reg	-1228
▁brows	-1229
rible	-1230
ier	-1231
▁less	-1232
▁seen	-1233
▁watch	-1234
hi	-1235
▁pa	-1236
▁name	-1237
▁rate	-1238
▁sign	-1239
▁exactly	-1240
▁da	-1241
ready	-1242
▁home	-1243
▁post	-1244
▁wanted	-1245
sspp	-1246
▁worth	-1247
fortun	-1248
ta	-1249
▁close	-1250
▁already	-1251
▁beautiful	-1252
▁gallery	-1253
bb	-1254
fo	-1255
ience	-1256
ten	-1257
▁isn	-1258
▁soft	-1259
▁automatic	-1260
oom	-1261
ari	-1262
ave	-1263
▁enc	-1264
▁nic	-1265
▁vol	-1266
▁frost	-1267
▁ppsspp	-1268
ired	-1269
▁anymore	-1270
▁indian	-1271
▁instead	-1272
ought	-1273
▁goooo	-1274
▁privacy	-1275
▁constant	-1276
▁loc	-1277
▁gmail	-1278
▁friends	-1279
red	-1280
ress	-1281
▁hour	-1282
▁hang	-1283
ular	-1284
......	-1285
▁downloads	-1286
▁clean	-1287
▁happen	-1288
▁others	-1289
▁perfectly	-1290
▁lin	-1291
▁rece	-1292
▁scro	-1293
▁saying	-1294
▁men	-1295
▁team	-1296
▁were	-1297
iant	-1298
ground	-1299
▁smart	-1300
▁eng	-1301
▁possible	-1302
vers	-1303
▁dr	-1304
cessary	-1305
ather	-1306
▁each	-1307
▁quality	-1308
fortunately	-1309
▁disapp	-1310
▁select	-1311
ations	-1312
▁gives	-1313
▁night	-1314
▁unable	-1315
ai	-1316
▁absolutely	-1317
ward	-1318
▁brill	-1319
▁doing	-1320
▁quite	-1321
mb	-1322
ert	-1323
plic	-1324
▁icon	-1325
▁idea	-1326
▁india	-1327
▁understand	-1328
ek	-1329
port	-1330
▁connection	-1331
.""	-1332
ken	-1333
▁100	-1334
urity	-1335
▁face	-1336
▁level	-1337
▁track	-1338
▁khan	-1339
▁8	-1340
▁hab	-1341
ipedia	-1342
▁graph	-1343
▁smooth	-1344
ved	-1345
▁couldn	-1346
▁contacts	-1347
▁cur	-1348
▁ability	-1349
but	-1350
ell	-1351
to	-1352
▁md	-1353
▁lang	-1354
▁everyone	-1355
▁wikipedia	-1356
esting	-1357
▁photo	-1358
▁volume	-1359
▁multiple	-1360
ces	-1361
time	-1362
▁code	-1363
▁soon	-1364
▁wont	-1365
▁picture	-1366
▁crashing	-1367
▁security	-1368
▁background	-1369
wise	-1370
▁date	-1371
ree	-1372
cially	-1373
tern	-1374
▁taking	-1375
▁ef	-1376
▁large	-1377
▁developers	-1378
▁ac	-1379
▁bh	-1380
▁del	-1381
▁mast	-1382
mit	-1383
▁mot	-1384
orrect	-1385
▁click	-1386
▁rating	-1387
▁finally	-1388
vious	-1389
▁player	-1390
▁brilliant	-1391
na	-1392
ons	-1393
▁dec	-1394
▁nyc	-1395
fic	-1396
▁non	-1397
▁network	-1398
any	-1399
▁201	-1400
▁trans	-1401
▁second	-1402
wire	-1403
▁bas	-1404
▁black	-1405
▁easily	-1406
iving	-1407
▁keyboard	-1408
▁ir	-1409
▁clash	-1410
▁wrong	-1411
▁unless	-1412
▁lear	-1413
▁manag	-1414
▁password	-1415
▁dire	-1416
▁note	-1417
▁page	-1418
uu	-1419
like	-1420
▁low	-1421
▁tube	-1422
▁month	-1423
▁effect	-1424
▁otherwise	-1425
▁pod	-1426
▁deleted	-1427
▁gen	-1428
▁fact	-1429
▁drains	-1430
▁folder	-1431
▁م	-1432
▁bugs	-1433
▁longer	-1434
???	-1435
▁force	-1436
top	-1437
▁alot	-1438
ma	-1439
ont	-1440
▁eff	-1441
▁type	-1442
▁showing	-1443
▁boo	-1444
plain	-1445
▁sat	-1446
phone	-1447
▁browser	-1448
▁experience	-1449
▁uninstalled	-1450
use	-1451
▁det	-1452
▁sms	-1453
pa	-1454
▁reli	-1455
▁software	-1456
▁frostwire	-1457
▁cre	-1458
▁langu	-1459
▁son	-1460
▁unfortunately	-1461
ug	-1462
▁dark	-1463
▁lost	-1464
▁stud	-1465
oj	-1466
ux	-1467
▁kh	-1468
▁rel	-1469
▁added	-1470
▁cause	-1471
▁hated	-1472
cial	-1473
▁hor	-1474
▁maybe	-1475
▁theme	-1476
▁automatically	-1477
▁share	-1478
▁installing	-1479
og	-1480
▁pay	-1481
▁sn	-1482
▁ask	-1483
▁?	-1484
▁coc	-1485
▁9	-1486
ber	-1487
vent	-1488
ouble	-1489
▁uses	-1490
▁appear	-1491
▁ali	-1492
▁str	-1493
▁command	-1494
▁forever	-1495
▁reading	-1496
ana	-1497
▁cou	-1498
man	-1499
ssss	-1500
▁dam	-1501
▁stat	-1502
▁enter	-1503
▁offline	-1504
😣😣	-1505
▁pur	-1506
▁kill	-1507
icient	-1508
▁contin	-1509
▁result	-1510
▁correct	-1511
▁ah	-1512
ater	-1513
▁said	-1514
▁press	-1515
▁client	-1516
▁repl	-1517
ficult	-1518
▁color	-1519
▁display	-1520
▁ref	-1521
▁book	-1522
▁podcast	-1523
▁difficult	-1524
ok	-1525
........	-1526
▁stock	-1527
ush	-1528
▁:-	-1529
▁mean	-1530
▁looks	-1531
▁media	-1532
▁cop	-1533
▁auth	-1534
▁live	-1535
▁easier	-1536
▁both	-1537
pecially	-1538
▁totally	-1539
23	-1540
pn	-1541
please	-1542
▁block	-1543
▁handy	-1544
▁consumes	-1545
rent	-1546
▁fail	-1547
▁mov	-1548
▁sub	-1549
▁constantly	-1550
▁di	-1551
good	-1552
!!!!!	-1553
▁info	-1554
▁chats	-1555
xus	-1556
▁lu	-1557
aaaa	-1558
ness	-1559
yy	-1560
▁sel	-1561
▁around	-1562
▁friendly	-1563
▁na	-1564
▁choo	-1565
▁reliable	-1566
ooo	-1567
▁cap	-1568
▁prof	-1569
▁overall	-1570
gy	-1571
par	-1572
▁bak	-1573
▁completely	-1574
ledge	-1575
▁menu	-1576
▁sort	-1577
▁facebook	-1578
▁downloader	-1579
cri	-1580
jay	-1581
oin	-1582
ulous	-1583
▁haven	-1584
▁itself	-1585
▁mod	-1586
▁provid	-1587
lend	-1588
▁mail	-1589
▁root	-1590
▁stops	-1591
▁doesnt	-1592
▁someone	-1593
▁internal	-1594
med	-1595
▁red	-1596
▁upgrade	-1597
▁om	-1598
ased	-1599
▁par	-1600
▁pack	-1601
▁runs	-1602
▁request	-1603
acks	-1604
▁images	-1605
▁defin	-1606
▁anyone	-1607
▁especially	-1608
▁suck	-1609
▁nexus	-1610
▁whole	-1611
▁report	-1612
gh	-1613
لی	-1614
ying	-1615
▁shut	-1616
▁freez	-1617
▁online	-1618
▁server	-1619
▁improvement	-1620
▁reply	-1621
▁loving	-1622
▁waiting	-1623
gt	-1624
▁hours	-1625
idd	-1626
ents	-1627
▁apk	-1628
▁sent	-1629
▁image	-1630
▁pc	-1631
ither	-1632
▁develop	-1633
▁graphics	-1634
▁knowledge	-1635
tf	-1636
▁tab	-1637
▁place	-1638
▁sever	-1639
▁direct	-1640
ody	-1641
▁reset	-1642
▁current	-1643
▁perform	-1644
▁language	-1645
▁previous	-1646
co	-1647
pping	-1648
▁encry	-1649
▁short	-1650
▁channels	-1651
▁q	-1652
▁sur	-1653
▁*	-1654
ild	-1655
ific	-1656
itive	-1657
▁five	-1658
▁wall	-1659
▁adding	-1660
▁serious	-1661
▁war	-1662
▁main	-1663
▁news	-1664
▁accounts	-1665
▁👍	-1666
▁bus	-1667
▁luck	-1668
▁count	-1669
▁often	-1670
▁gd	-1671
llow	-1672
▁vis	-1673
▁yeah	-1674
▁started	-1675
reci	-1676
▁bring	-1677
▁receive	-1678
he	-1679
▁pu	-1680
▁chr	-1681
▁tas	-1682
ution	-1683
▁suggestion	-1684
oney	-1685
▁past	-1686
▁redu	-1687
ket	-1688
▁adv	-1689
▁shar	-1690
▁applications	-1691
▁form	-1692
▁record	-1693
▁reinst	-1694
▁manager	-1695
▁:(	-1696
▁rom	-1697
ougat	-1698
▁extre	-1699
▁playst	-1700
▁appreci	-1701
isf	-1702
ably	-1703
▁fut	-1704
▁inv	-1705
▁away	-1706
▁took	-1707
▁wind	-1708
▁least	-1709
vv	-1710
▁#	-1711
ustr	-1712
▁ret	-1713
▁rid	-1714
▁wtf	-1715
fully	-1716
▁inde	-1717
▁commun	-1718
▁thought	-1719
▁effective	-1720
😍😍	-1721
▁ak	-1722
▁ms	-1723
▁nav	-1724
▁process	-1725
▁interesting	-1726
nx	-1727
ru	-1728
ird	-1729
rew	-1730
utes	-1731
▁bull	-1732
▁accur	-1733
▁create	-1734
▁enable	-1735
▁ک	-1736
▁ya	-1737
▁ans	-1738
▁bel	-1739
▁singh	-1740
▁calend	-1741
▁include	-1742
▁whenever	-1743
▁fac	-1744
▁sad	-1745
▁goes	-1746
▁self	-1747
▁saved	-1748
▁highly	-1749
▁nougat	-1750
▁company	-1751
ye	-1752
ism	-1753
ling	-1754
▁hack	-1755
▁several	-1756
iled	-1757
ross	-1758
▁site	-1759
▁basic	-1760
▁expect	-1761
▁wouldn	-1762
ared	-1763
▁hello	-1764
▁complain	-1765
▁gh	-1766
▁order	-1767
▁frustr	-1768
ms	-1769
ali	-1770
▁oh	-1771
ites	-1772
▁rah	-1773
ern	-1774
▁hh	-1775
hhhh	-1776
ktop	-1777
uses	-1778
▁occ	-1779
▁yo	-1780
▁char	-1781
▁money	-1782
▁choose	-1783
▁0	-1784
ject	-1785
lish	-1786
▁gar	-1787
▁rand	-1788
▁comes	-1789
▁giving	-1790
▁scroll	-1791
▁provide	-1792
mi	-1793
box	-1794
▁ko	-1795
ween	-1796
▁vir	-1797
ently	-1798
using	-1799
▁week	-1800
▁buttons	-1801
▁extreme	-1802
▁minutes	-1803
▁@	-1804
▁د	-1805
▁aa	-1806
love	-1807
igure	-1808
▁hear	-1809
▁clans	-1810
▁either	-1811
10	-1812
com	-1813
you	-1814
▁fab	-1815
▁hey	-1816
▁emoj	-1817
▁goog	-1818
▁status	-1819
▁required	-1820
vo	-1821
eeee	-1822
▁ear	-1823
paper	-1824
▁webs	-1825
▁guess	-1826
▁future	-1827
▁between	-1828
▁desktop	-1829
?!	-1830
uk	-1831
ical	-1832
ream	-1833
rrrr	-1834
▁web	-1835
▁single	-1836
▁location	-1837
▁functionality	-1838
ero	-1839
▁car	-1840
▁due	-1841
▁ent	-1842
▁safe	-1843
▁results	-1844
ny	-1845
lay	-1846
ouch	-1847
▁sky	-1848
▁tap	-1849
▁care	-1850
▁plat	-1851
▁produ	-1852
▁engine	-1853
▁disappoin	-1854
▁everytime	-1855
ani	-1856
▁kar	-1857
▁copy	-1858
▁forced	-1859
▁ع	-1860
just	-1861
▁link	-1862
▁buddha	-1863
ret	-1864
▁hal	-1865
▁hmm	-1866
▁que	-1867
▁huge	-1868
▁playstore	-1869
.2	-1870
dddd	-1871
itely	-1872
▁prob	-1873
▁words	-1874
▁/	-1875
ider	-1876
sing	-1877
▁mal	-1878
▁sch	-1879
▁activ	-1880
▁artic	-1881
▁played	-1882
▁loading	-1883
ty	-1884
▁map	-1885
▁cert	-1886
▁satisf	-1887
▁folders	-1888
la	-1889
aly	-1890
anks	-1891
▁fam	-1892
▁gif	-1893
press	-1894
where	-1895
▁except	-1896
▁forward	-1897
****	-1898
▁hii	-1899
▁fing	-1900
▁asking	-1901
▁broken	-1902
▁indeed	-1903
▁random	-1904
ham	-1905
▁ob	-1906
▁typ	-1907
▁none	-1908
▁buddh	-1909
▁cloud	-1910
▁horrible	-1911
▁manually	-1912
▁swe	-1913
▁groups	-1914
▁respond	-1915
▁necessary	-1916
▁gg	-1917
▁ago	-1918
▁tor	-1919
▁follow	-1920
▁extremely	-1921
▁wallpaper	-1922
star	-1923
▁rub	-1924
venient	-1925
▁calendar	-1926
▁ت	-1927
way	-1928
▁luv	-1929
▁flash	-1930
▁limit	-1931
▁linux	-1932
▁touch	-1933
▁remind	-1934
--	-1935
ict	-1936
▁alb	-1937
▁pix	-1938
▁norm	-1939
▁opening	-1940
▁trouble	-1941
▁terrible	-1942
▁definitely	-1943
▁و	-1944
▁bab	-1945
▁flaw	-1946
▁hist	-1947
▁item	-1948
▁left	-1949
▁port	-1950
though	-1951
▁exam	-1952
▁assist	-1953
▁choice	-1954
go	-1955
▁mad	-1956
▁tech	-1957
▁minim	-1958
▁changed	-1959
▁lg	-1960
▁ss	-1961
ters	-1962
▁foc	-1963
▁maj	-1964
creen	-1965
▁moto	-1966
▁talkback	-1967
ities	-1968
▁zoom	-1969
▁glitch	-1970
▁comment	-1971
▁platform	-1972
the	-1973
▁!!	-1974
▁ut	-1975
lock	-1976
osed	-1977
▁pin	-1978
▁books	-1979
▁daily	-1980
▁pixel	-1981
▁changes	-1982
▁خ	-1983
inal	-1984
▁hon	-1985
▁mag	-1986
essed	-1987
▁become	-1988
▁favour	-1989
af	-1990
ار	-1991
▁mah	-1992
▁vpn	-1993
▁adds	-1994
▁head	-1995
▁spec	-1996
▁content	-1997
▁history	-1998
▁question	-1999
ilt	-2000
▁bi	-2001
▁pie	-2002
▁album	-2003
▁gener	-2004
▁later	-2005
▁thats	-2006
▁usage	-2007
▁write	-2008
▁artist	-2009
▁authent	-2010
▁mi	-2011
▁irr	-2012
ternal	-2013
ulting	-2014
▁replace	-2015
▁restart	-2016
▁sticker	-2017
▁recently	-2018
wer	-2019
▁du	-2020
▁damn	-2021
▁iran	-2022
▁sweet	-2023
▁today	-2024
▁sending	-2025
ام	-2026
que	-2027
ram	-2028
▁san	-2029
▁prom	-2030
▁manage	-2031
▁supper	-2032
50	-2033
ates	-2034
orry	-2035
▁val	-2036
right	-2037
👎👎	-2038
iya	-2039
unk	-2040
▁mom	-2041
▁comput	-2042
▁couple	-2043
▁reduce	-2044
▁certain	-2045
oooooooooooooooo	-2046
ger	-2047
vert	-2048
▁buy	-2049
▁hit	-2050
▁cell	-2051
▁extra	-2052
▁emails	-2053
▁quickly	-2054
ots	-2055
▁1.	-2056
ized	-2057
▁esse	-2058
▁ones	-2059
▁unne	-2060
▁frequ	-2061
▁versions	-2062
▁ba	-2063
ieve	-2064
▁king	-2065
▁orig	-2066
▁solve	-2067
▁termin	-2068
▁performance	-2069
▁recommended	-2070
ja	-2071
ka	-2072
enc	-2073
und	-2074
▁ka	-2075
▁si	-2076
body	-2077
▁box	-2078
▁nam	-2079
▁incre	-2080
▁allows	-2081
ify	-2082
ote	-2083
put	-2084
▁learn	-2085
ization	-2086
▁controls	-2087
▁efficient	-2088
▁;	-2089
shit	-2090
▁cal	-2091
▁mark	-2092
▁navig	-2093
▁verry	-2094
▁chrome	-2095
▁website	-2096
hu	-2097
ze	-2098
▁bc	-2099
▁exce	-2100
▁mind	-2101
▁puzz	-2102
ctions	-2103
ability	-2104
▁months	-2105
▁product	-2106
▁profile	-2107
▁although	-2108
▁insulting	-2109
????	-2110
ands	-2111
date	-2112
ised	-2113
▁fake	-2114
▁helped	-2115
▁accurate	-2116
ache	-2117
▁inte	-2118
▁mass	-2119
▁irrit	-2120
▁figure	-2121
▁personal	-2122
▁har	-2123
▁blog	-2124
▁garb	-2125
▁line	-2126
▁colle	-2127
▁convenient	-2128
bar	-2129
▁ve	-2130
ggle	-2131
ited	-2132
▁cor	-2133
▁gave	-2134
▁near	-2135
▁descri	-2136
▁prefer	-2137
▁requir	-2138
▁external	-2139
▁functions	-2140
ors	-2141
pic	-2142
▁2.	-2143
▁nd	-2144
▁pos	-2145
▁tit	-2146
▁dist	-2147
▁expl	-2148
▁feed	-2149
▁garbage	-2150
▁👌	-2151
was	-2152
▁عا	-2153
▁thumb	-2154
▁trust	-2155
▁matter	-2156
▁example	-2157
▁buddhism	-2158
▁searching	-2159
zy	-2160
ane	-2161
for	-2162
ins	-2163
▁half	-2164
▁resol	-2165
▁telling	-2166
▁improved	-2167
▁powerful	-2168
tu	-2169
bish	-2170
ging	-2171
odes	-2172
▁sorry	-2173
▁tells	-2174
▁deleting	-2175
ba	-2176
wa	-2177
😠😠	-2178
▁!!!	-2179
▁lets	-2180
▁rock	-2181
▁might	-2182
▁incred	-2183
▁convers	-2184
▁comments	-2185
▁frustrating	-2186
ga	-2187
▁ن	-2188
down	-2189
▁bugg	-2190
▁oper	-2191
▁scan	-2192
▁essent	-2193
▁finger	-2194
▁address	-2195
▁require	-2196
▁suggest	-2197
▁original	-2198
ان	-2199
als	-2200
▁vi	-2201
▁ach	-2202
▁beg	-2203
▁dep	-2204
▁osm	-2205
▁wwe	-2206
allow	-2207
▁stay	-2208
▁stra	-2209
▁login	-2210
▁finish	-2211
▁habits	-2212
▁upgrad	-2213
▁+	-2214
ata	-2215
▁dh	-2216
▁ra	-2217
▁mor	-2218
▁omg	-2219
▁soo	-2220
▁gone	-2221
▁snap	-2222
▁coming	-2223
▁probably	-2224
▁reinstall	-2225
▁seriously	-2226
dden	-2227
▁bal	-2228
▁his	-2229
▁hot	-2230
▁pain	-2231
▁sudden	-2232
▁rubbish	-2233
ست	-2234
😡😡	-2235
raj	-2236
rop	-2237
▁fal	-2238
▁met	-2239
▁side	-2240
▁thin	-2241
▁build	-2242
▁piece	-2243
▁amount	-2244
▁turned	-2245
▁seconds	-2246
▁supposed	-2247
▁disappointed	-2248
aking	-2249
▁dumb	-2250
▁maps	-2251
▁prot	-2252
▁instant	-2253
▁persian	-2254
▁क	-2255
ilar	-2256
▁mas	-2257
▁habit	-2258
▁moder	-2259
▁stuck	-2260
▁bullshit	-2261
▁connected	-2262
▁appreciate	-2263
do	-2264
▁ه	-2265
▁😊	-2266
▁bre	-2267
▁msg	-2268
▁100%	-2269
atever	-2270
▁total	-2271
▁active	-2272
""""""""""	-2273
▁favourite	-2274
key	-2275
▁bag	-2276
▁lov	-2277
▁tnx	-2278
gress	-2279
▁step	-2280
▁goood	-2281
▁posts	-2282
▁rather	-2283
▁computer	-2284
▁disabled	-2285
▁terminal	-2286
shm	-2287
▁:-)	-2288
▁uni	-2289
uring	-2290
▁attach	-2291
▁detail	-2292
▁greatest	-2293
▁unnecessary	-2294
my	-2295
su	-2296
▁sir	-2297
▁true	-2298
▁kinda	-2299
▁sharing	-2300
▁draining	-2301
▁fabulous	-2302
▁happened	-2303
▁bots	-2304
▁test	-2305
▁major	-2306
▁straight	-2307
▁functional	-2308
br	-2309
gan	-2310
▁50	-2311
▁bt	-2312
ried	-2313
this	-2314
▁reb	-2315
▁plan	-2316
▁normal	-2317
▁learning	-2318
▁solution	-2319
ita	-2320
▁30	-2321
adav	-2322
▁pot	-2323
▁paid	-2324
▁admin	-2325
▁improvements	-2326
avi	-2327
▁ben	-2328
▁doc	-2329
▁fan	-2330
▁sun	-2331
▁wait	-2332
uitive	-2333
▁bloat	-2334
▁focus	-2335
ibility	-2336
▁marshm	-2337
▁social	-2338
▁whatever	-2339
▁essential	-2340
gb	-2341
lt	-2342
code	-2343
ense	-2344
iiii	-2345
pect	-2346
▁shown	-2347
▁stand	-2348
▁movies	-2349
😘😘	-2350
mon	-2351
ove	-2352
▁mm	-2353
▁est	-2354
activ	-2355
▁based	-2356
▁saving	-2357
▁assistant	-2358
ui	-2359
oub	-2360
▁er	-2361
▁ki	-2362
oogle	-2363
▁kept	-2364
▁.....	-2365
▁given	-2366
▁wants	-2367
▁themes	-2368
▁freezes	-2369
▁ni	-2370
▁mic	-2371
▁deli	-2372
▁plays	-2373
▁separ	-2374
▁altern	-2375
▁stable	-2376
▁concept	-2377
▁weather	-2378
▁encryption	-2379
▁4.	-2380
▁kk	-2381
list	-2382
▁pub	-2383
▁sar	-2384
▁via	-2385
▁edge	-2386
▁lack	-2387
▁عالی	-2388
ention	-2389
▁deser	-2390
▁means	-2391
▁errors	-2392
▁requires	-2393
▁transfer	-2394
pu	-2395
ada	-2396
kar	-2397
anna	-2398
▁sal	-2399
gmail	-2400
▁modern	-2401
▁similar	-2402
ibr	-2403
▁ru	-2404
▁sty	-2405
▁tur	-2406
▁nicely	-2407
▁minimal	-2408
▁addition	-2409
▁progress	-2410
20	-2411
ex	-2412
▁xx	-2413
ateg	-2414
ccess	-2415
▁join	-2416
▁built	-2417
▁family	-2418
▁integr	-2419
uz	-2420
▁20	-2421
▁ev	-2422
▁hide	-2423
▁task	-2424
▁trash	-2425
.......	-2426
▁wordpress	-2427
▁marshmallow	-2428
ama	-2429
ner	-2430
tom	-2431
mmmm	-2432
▁mis	-2433
😣😣😣😣	-2434
ember	-2435
iness	-2436
▁asap	-2437
▁fuck	-2438
▁drive	-2439
▁failed	-2440
▁starts	-2441
▁reviews	-2442
▁consuming	-2443
▁uninstalling	-2444
xx	-2445
▁hd	-2446
▁6.0	-2447
▁gre	-2448
▁devs	-2449
▁fully	-2450
▁yadav	-2451
ossible	-2452
▁intuitive	-2453
000	-2454
234	-2455
▁ele	-2456
▁lay	-2457
▁meh	-2458
▁roo	-2459
▁gold	-2460
lessly	-2461
oooooo	-2462
▁honest	-2463
▁worried	-2464
▁specific	-2465
▁connecting	-2466
mar	-2467
ses	-2468
uss	-2469
ange	-2470
▁beat	-2471
▁deep	-2472
▁adjust	-2473
▁answer	-2474
▁filter	-2475
▁secret	-2476
standing	-2477
▁fu	-2478
▁boy	-2479
▁urge	-2480
google	-2481
iction	-2482
▁worse	-2483
▁finding	-2484
▁consider	-2485
▁helpfull	-2486
▁impossible	-2487
!!!!!!!!!!!!!!!!	-2488
$$	-2489
jj	-2490
lam	-2491
mad	-2492
▁ja	-2493
▁tv	-2494
onse	-2495
ouse	-2496
▁hun	-2497
▁opp	-2498
▁heav	-2499
▁lose	-2500
▁pres	-2501
▁refr	-2502
weight	-2503
▁reader	-2504
▁alright	-2505
▁protect	-2506
▁changing	-2507
df	-2508
set	-2509
uly	-2510
ump	-2511
▁je	-2512
▁font	-2513
▁glad	-2514
▁purp	-2515
▁fails	-2516
▁helping	-2517
▁everyday	-2518
asi	-2519
sed	-2520
▁bra	-2521
▁pol	-2522
gging	-2523
▁apple	-2524
▁event	-2525
plement	-2526
▁format	-2527
▁success	-2528
▁communication	-2529
hah	-2530
alle	-2531
chat	-2532
▁max	-2533
▁she	-2534
ories	-2535
▁dest	-2536
▁cache	-2537
▁taken	-2538
▁anyway	-2539
▁bottom	-2540
▁believe	-2541
▁regular	-2542
ین	-2543
👏👏	-2544
cut	-2545
har	-2546
ina	-2547
▁htc	-2548
▁idk	-2549
▁ten	-2550
ified	-2551
print	-2552
▁clan	-2553
▁went	-2554
verage	-2555
▁locks	-2556
▁consume	-2557
▁selection	-2558
▁outstanding	-2559
-)	-2560
cl	-2561
mp	-2562
how	-2563
ron	-2564
ude	-2565
used	-2566
▁beh	-2567
▁came	-2568
▁junk	-2569
▁mine	-2570
▁repe	-2571
▁till	-2572
▁categ	-2573
▁implement	-2574
tr	-2575
▁leg	-2576
vered	-2577
▁aren	-2578
▁deal	-2579
▁path	-2580
ressed	-2581
▁items	-2582
▁mater	-2583
▁compat	-2584
▁remember	-2585
▁smoothly	-2586
▁vo	-2587
▁gps	-2588
▁pat	-2589
▁sup	-2590
👍👍👍👍	-2591
▁push	-2592
▁ring	-2593
▁liter	-2594
▁rahul	-2595
▁across	-2596
▁unlock	-2597
▁happens	-2598
▁keeping	-2599
▁articles	-2600
▁satisfied	-2601
▁irritating	-2602
▁informative	-2603
***	-2604
▁aj	-2605
▁bb	-2606
▁ple	-2607
▁lags	-2608
▁plzz	-2609
▁buggy	-2610
▁codes	-2611
▁exist	-2612
▁laggy	-2613
▁entire	-2614
▁myself	-2615
▁deactiv	-2616
▁response	-2617
fa	-2618
gu	-2619
eld	-2620
▁ip	-2621
▁zero	-2622
▁crazy	-2623
▁virus	-2624
▁decent	-2625
▁barcode	-2626
▁release	-2627
▁usually	-2628
▁windows	-2629
▁material	-2630
▁supported	-2631
arma	-2632
kkkk	-2633
medi	-2634
▁kam	-2635
▁nor	-2636
▁blind	-2637
▁hands	-2638
▁leave	-2639
▁pages	-2640
▁truly	-2641
▁looked	-2642
▁crashed	-2643
▁continue	-2644
▁suddenly	-2645
▁lightweight	-2646
▁н	-2647
▁kr	-2648
▁blu	-2649
▁nar	-2650
ising	-2651
▁2017	-2652
▁eats	-2653
▁iphone	-2654
▁private	-2655
▁correctly	-2656
▁description	-2657
ef	-2658
fi	-2659
za	-2660
ime	-2661
cing	-2662
ions	-2663
itor	-2664
▁cut	-2665
▁mak	-2666
▁por	-2667
▁var	-2668
▁wee	-2669
▁bang	-2670
!!!!!!	-2671
orrent	-2672
thanks	-2673
▁begin	-2674
▁dream	-2675
▁purch	-2676
▁title	-2677
▁colour	-2678
▁remote	-2679
▁strong	-2680
▁simplic	-2681
▁screensh	-2682
▁literally	-2683
❤❤	-2684
ena	-2685
▁tin	-2686
▁docum	-2687
▁three	-2688
▁manual	-2689
▁english	-2690
▁provides	-2691
▁replacement	-2692
ای	-2693
bot	-2694
ety	-2695
ipe	-2696
▁ug	-2697
▁بر	-2698
ering	-2699
▁intr	-2700
▁keys	-2701
▁vari	-2702
▁movie	-2703
▁offic	-2704
▁advert	-2705
▁market	-2706
▁regard	-2707
▁within	-2708
▁restore	-2709
▁commands	-2710
▁dj	-2711
nter	-2712
want	-2713
▁abd	-2714
▁cpu	-2715
▁awsm	-2716
▁sens	-2717
▁shah	-2718
▁datab	-2719
▁popular	-2720
▁designed	-2721
▁simplicity	-2722
bu	-2723
eno	-2724
▁3.	-2725
▁tre	-2726
▁wanna	-2727
▁bright	-2728
▁immedi	-2729
▁reboot	-2730
▁editing	-2731
▁alternative	-2732
▁fingerprint	-2733
gn	-2734
amp	-2735
iod	-2736
ides	-2737
name	-2738
pted	-2739
tain	-2740
▁bat	-2741
▁thx	-2742
▁boss	-2743
▁called	-2744
▁gaming	-2745
▁business	-2746
▁creating	-2747
▁increase	-2748
▁received	-2749
▁goooooooo	-2750
4.	-2751
ob	-2752
▁ش	-2753
ake	-2754
kesh	-2755
▁gay	-2756
▁pause	-2757
▁forget	-2758
▁moment	-2759
▁project	-2760
▁removed	-2761
▁suggestions	-2762
99	-2763
😈😈	-2764
ior	-2765
▁7.0	-2766
▁ang	-2767
▁ash	-2768
▁sle	-2769
anger	-2770
arent	-2771
▁ball	-2772
▁fire	-2773
▁pick	-2774
ending	-2775
▁awful	-2776
▁funny	-2777
▁heavy	-2778
▁export	-2779
▁created	-2780
▁factory	-2781
▁recording	-2782
▁incredible	-2783
aks	-2784
▁15	-2785
▁bah	-2786
▁tag	-2787
idden	-2788
ident	-2789
kumar	-2790
thank	-2791
▁core	-2792
▁pics	-2793
▁room	-2794
▁wasn	-2795
▁refer	-2796
▁relig	-2797
▁actual	-2798
▁moving	-2799
▁school	-2800
▁average	-2801
ti	-2802
aaa	-2803
can	-2804
▁fb	-2805
iles	-2806
ined	-2807
▁iam	-2808
▁sex	-2809
▁unus	-2810
▁emoji	-2811
▁setup	-2812
▁texts	-2813
▁twice	-2814
▁white	-2815
▁bakwas	-2816
▁during	-2817
plicated	-2818
ssssssss	-2819
▁authentic	-2820
kh	-2821
▁с	-2822
hai	-2823
sen	-2824
▁nu	-2825
ains	-2826
ract	-2827
ooooo	-2828
▁case	-2829
etooth	-2830
▁alarm	-2831
▁class	-2832
▁faltu	-2833
▁weeks	-2834
▁weird	-2835
▁causes	-2836
▁donate	-2837
▁goggle	-2838
▁limited	-2839
▁special	-2840
▁database	-2841
▁в	-2842
▁п	-2843
ips	-2844
ony	-2845
war	-2846
▁mp	-2847
ases	-2848
▁arr	-2849
▁bes	-2850
▁dun	-2851
▁ful	-2852
▁nah	-2853
▁ran	-2854
▁hass	-2855
gether	-2856
▁shame	-2857
▁sounds	-2858
▁appears	-2859
▁podcasts	-2860
ki	-2861
some	-2862
uuuu	-2863
▁ajay	-2864
▁blue	-2865
▁becom	-2866
▁cross	-2867
▁study	-2868
▁charac	-2869
▁effort	-2870
▁emojis	-2871
▁refresh	-2872
▁stopping	-2873
▁currently	-2874
▁development	-2875
da	-2876
va	-2877
😂😂	-2878
ppy	-2879
ibly	-2880
▁bis	-2881
▁exe	-2882
▁busy	-2883
▁hind	-2884
▁hold	-2885
▁lord	-2886
▁sony	-2887
▁gamep	-2888
▁incom	-2889
▁opens	-2890
▁organ	-2891
▁tasks	-2892
▁slowly	-2893
▁thumbs	-2894
▁typing	-2895
▁unique	-2896
▁shouldn	-2897
▁torrent	-2898
▁chatting	-2899
▁starting	-2900
▁bluetooth	-2901
@@	-2902
uc	-2903
▁خو	-2904
free	-2905
▁ios	-2906
▁tel	-2907
▁tho	-2908
▁tra	-2909
light	-2910
▁host	-2911
▁broke	-2912
▁grate	-2913
▁solid	-2914
!!!!!!!	-2915
▁hidden	-2916
▁kindly	-2917
▁country	-2918
dh	-2919
گر	-2920
▁)	-2921
pro	-2922
res	-2923
▁hy	-2924
▁ny	-2925
▁ti	-2926
card	-2927
ming	-2928
▁apl	-2929
▁dan	-2930
▁pan	-2931
▁rooted	-2932
▁details	-2933
▁thinking	-2934
rup	-2935
▁ng	-2936
tttt	-2937
▁gon	-2938
▁him	-2939
▁pra	-2940
▁exit	-2941
▁fair	-2942
▁shiv	-2943
ources	-2944
▁scann	-2945
connect	-2946
iculous	-2947
▁period	-2948
▁supports	-2949
▁bloatware	-2950
▁conversation	-2951
by	-2952
▁ر	-2953
"".	-2954
▁ge	-2955
▁il	-2956
pped	-2957
▁ste	-2958
▁stre	-2959
▁tabs	-2960
illion	-2961
▁annoy	-2962
▁explor	-2963
▁instru	-2964
▁return	-2965
▁morning	-2966
▁purpose	-2967
▁respect	-2968
▁section	-2969
▁directly	-2970
ید	-2971
▁jh	-2972
ency	-2973
▁7.1	-2974
▁fit	-2975
▁fur	-2976
▁ive	-2977
▁aplic	-2978
▁chess	-2979
▁loads	-2980
▁realy	-2981
▁enabled	-2982
▁feeling	-2983
▁feedback	-2984
▁position	-2985
▁separate	-2986
▁together	-2987
▁collection	-2988
▁installation	-2989
ww	-2990
▁um	-2991
grap	-2992
ster	-2993
▁hum	-2994
▁med	-2995
▁cost	-2996
▁kern	-2997
▁wats	-2998
▁didnt	-2999
▁ilove	-3000
▁input	-3001
▁intro	-3002
▁notes	-3003
▁rated	-3004
▁double	-3005
▁killer	-3006
▁impress	-3007
▁frequently	-3008
▁smartphone	-3009
12	-3010
aps	-3011
ran	-3012
vice	-3013
istic	-3014
▁2016	-3015
▁appp	-3016
▁dope	-3017
▁sick	-3018
ictive	-3019
▁front	-3020
▁occup	-3021
▁awesom	-3022
▁opened	-3023
▁players	-3024
"""""""".	-3025
▁controll	-3026
▁interest	-3027
▁unusable	-3028
▁confusing	-3029
▁including	-3030
▁listening	-3031
▁lockscreen	-3032
▁navigation	-3033
▁complicated	-3034
17	-3035
ey	-3036
gs	-3037
hy	-3038
ky	-3039
201	-3040
nch	-3041
▁gb	-3042
▁das	-3043
▁jan	-3044
▁pdf	-3045
▁rot	-3046
▁sah	-3047
esome	-3048
ether	-3049
ister	-3050
▁1234	-3051
▁anim	-3052
▁city	-3053
▁drag	-3054
ential	-3055
▁along	-3056
▁goods	-3057
▁links	-3058
▁sense	-3059
▁story	-3060
▁challe	-3061
▁detect	-3062
▁anywhere	-3063
▁compared	-3064
▁customiz	-3065
▁immediately	-3066
iy	-3067
то	-3068
odi	-3069
▁12	-3070
▁tu	-3071
iced	-3072
vvvv	-3073
▁dri	-3074
▁gir	-3075
▁moh	-3076
▁poo	-3077
▁tam	-3078
usive	-3079
▁opin	-3080
▁ways	-3081
▁bagus	-3082
▁heart	-3083
▁sites	-3084
▁turns	-3085
▁numbers	-3086
▁puzzles	-3087
▁wasting	-3088
▁shortcut	-3089
▁flawlessly	-3090
nn	-3091
ids	-3092
ogn	-3093
▁ce	-3094
▁coo	-3095
▁mer	-3096
▁spy	-3097
▁boot	-3098
▁told	-3099
▁tools	-3100
▁config	-3101
▁window	-3102
▁popping	-3103
▁respons	-3104
▁freaking	-3105
▁uploading	-3106
▁responding	-3107
je	-3108
sa	-3109
▁$	-3110
bin	-3111
hhh	-3112
ili	-3113
▁wi	-3114
icks	-3115
▁guy	-3116
▁jay	-3117
▁rad	-3118
▁woo	-3119
▁dear	-3120
▁memb	-3121
▁optim	-3122
▁redmi	-3123
▁confir	-3124
▁kernel	-3125
▁diction	-3126
▁present	-3127
80	-3128
ns	-3129
▁☺	-3130
▁😍	-3131
ape	-3132
asy	-3133
mer	-3134
oid	-3135
ost	-3136
why	-3137
erry	-3138
gggg	-3139
yyyy	-3140
▁dig	-3141
▁eat	-3142
owing	-3143
▁cour	-3144
▁spam	-3145
▁subs	-3146
▁attem	-3147
▁cards	-3148
▁bought	-3149
▁depend	-3150
▁lately	-3151
▁layout	-3152
▁excelent	-3153
▁randomly	-3154
▁upgraded	-3155
vi	-3156
😙😙	-3157
ara	-3158
ati	-3159
lim	-3160
wal	-3161
▁ay	-3162
▁ul	-3163
aces	-3164
side	-3165
▁200	-3166
▁jam	-3167
▁lap	-3168
▁okk	-3169
▁tun	-3170
▁arch	-3171
▁asks	-3172
ensive	-3173
wanted	-3174
▁gonna	-3175
▁hahah	-3176
▁screw	-3177
▁sleep	-3178
▁third	-3179
▁signal	-3180
▁article	-3181
▁comfort	-3182
▁monitor	-3183
ufficient	-3184
▁glitches	-3185
▁yourself	-3186
▁disappear	-3187
▁ridiculous	-3188
fr	-3189
eee	-3190
ets	-3191
▁ji	-3192
▁nc	-3193
cent	-3194
ines	-3195
lesh	-3196
over	-3197
▁gta	-3198
▁her	-3199
▁iso	-3200
▁ssh	-3201
▁duck	-3202
▁hasn	-3203
▁sand	-3204
▁ugly	-3205
▁bible	-3206
▁vijay	-3207
ilities	-3208
▁blocked	-3209
▁explain	-3210
▁tracking	-3211
ju	-3212
kn	-3213
▁dd	-3214
▁oo	-3215
logy	-3216
▁cuz	-3217
▁die	-3218
peria	-3219
▁bios	-3220
▁blur	-3221
▁haha	-3222
▁lite	-3223
▁mant	-3224
▁pand	-3225
▁eating	-3226
▁partic	-3227
▁superr	-3228
▁introdu	-3229
▁writing	-3230
▁expected	-3231
▁gameplay	-3232
▁snapchat	-3233
▁usefully	-3234
di	-3235
😁😁	-3236
hel	-3237
tes	-3238
▁--	-3239
▁eh	-3240
▁vs	-3241
ills	-3242
istr	-3243
what	-3244
▁bom	-3245
▁coz	-3246
▁dar	-3247
▁kud	-3248
▁pal	-3249
▁draw	-3250
▁leno	-3251
update	-3252
▁chand	-3253
▁simpl	-3254
▁tired	-3255
▁compet	-3256
▁techno	-3257
▁lagging	-3258
▁official	-3259
▁unwanted	-3260
▁addictive	-3261
▁following	-3262
▁hopefully	-3263
▁impressed	-3264
▁switching	-3265
▁compatible	-3266
ax	-3267
ez	-3268
si	-3269
ال	-3270
▁म	-3271
ale	-3272
▁bs	-3273
atel	-3274
bble	-3275
gust	-3276
plus	-3277
▁cho	-3278
▁dim	-3279
▁vry	-3280
▁plug	-3281
▁feels	-3282
▁state	-3283
▁synch	-3284
▁master	-3285
▁stream	-3286
▁continu	-3287
▁overlay	-3288
▁widgets	-3289
ification	-3290
▁thankyou	-3291
▁customization	-3292
bi	-3293
lu	-3294
rd	-3295
ون	-3296
▁❤	-3297
aka	-3298
kan	-3299
urb	-3300
▁ey	-3301
▁ff	-3302
▁ham	-3303
▁mat	-3304
▁npr	-3305
▁sou	-3306
▁sus	-3307
anced	-3308
ended	-3309
▁desp	-3310
▁drop	-3311
▁wire	-3312
▁asked	-3313
▁bunch	-3314
▁hangs	-3315
▁local	-3316
▁minute	-3317
▁mostly	-3318
▁scanner	-3319
▁happening	-3320
/10	-3321
lex	-3322
ora	-3323
▁aps	-3324
▁flo	-3325
▁sit	-3326
eeeee	-3327
▁blah	-3328
▁capt	-3329
▁ravi	-3330
▁spot	-3331
▁above	-3332
▁bless	-3333
▁match	-3334
▁swipe	-3335
▁gooood	-3336
▁mention	-3337
▁opinion	-3338
▁package	-3339
▁dictionary	-3340
▁authentication	-3341
hn	-3342
ito	-3343
kat	-3344
lly	-3345
osh	-3346
▁az	-3347
▁sr	-3348
▁ال	-3349
▁با	-3350
▁می	-3351
▁ign	-3352
ifull	-3353
ional	-3354
▁bhai	-3355
▁brow	-3356
▁clas	-3357
▁gifs	-3358
▁wake	-3359
▁micro	-3360
▁style	-3361
▁action	-3362
▁calibr	-3363
▁higher	-3364
▁laptop	-3365
▁lenovo	-3366
▁locked	-3367
▁xperia	-3368
▁syncing	-3369
▁students	-3370
▁particular	-3371
▁insufficient	-3372
▁authenticator	-3373
5.	-3374
mu	-3375
ital	-3376
▁inf	-3377
▁yah	-3378
▁rend	-3379
▁wiki	-3380
▁names	-3381
▁reach	-3382
▁puzzle	-3383
▁recogn	-3384
▁solved	-3385
▁unlike	-3386
▁allowed	-3387
▁turning	-3388
▁deserves	-3389
▁explorer	-3390
▁reminder	-3391
▁selected	-3392
▁receiving	-3393
▁worthless	-3394
ни	-3395
😀😀	-3396
aim	-3397
nam	-3398
off	-3399
ola	-3400
plz	-3401
ivid	-3402
llll	-3403
▁mig	-3404
▁sho	-3405
▁tan	-3406
▁tex	-3407
▁xxx	-3408
▁خوب	-3409
ously	-3410
▁dose	-3411
▁educ	-3412
▁neat	-3413
▁rare	-3414
▁firew	-3415
▁icons	-3416
▁surpr	-3417
▁albums	-3418
▁colors	-3419
▁scrobb	-3420
▁disgust	-3421
▁quickpic	-3422
▁directory	-3423
dy	-3424
omi	-3425
▁ju	-3426
aced	-3427
iest	-3428
ipop	-3429
▁ast	-3430
▁bla	-3431
▁dem	-3432
▁din	-3433
▁equ	-3434
▁idi	-3435
▁jai	-3436
👎👎👎👎	-3437
iddle	-3438
▁beta	-3439
▁girl	-3440
▁kodi	-3441
▁term	-3442
▁quest	-3443
▁tanks	-3444
▁nearly	-3445
▁seeing	-3446
▁despite	-3447
▁fastest	-3448
▁hangout	-3449
▁related	-3450
▁various	-3451
▁whether	-3452
▁compress	-3453
▁enjoying	-3454
▁firewall	-3455
▁playlist	-3456
▁entertain	-3457
▁instructions	-3458
ica	-3459
jan	-3460
roy	-3461
sss	-3462
bbbb	-3463
come	-3464
kken	-3465
ules	-3466
▁api	-3467
▁nag	-3468
▁wel	-3469
ables	-3470
▁late	-3471
▁pull	-3472
▁raju	-3473
abling	-3474
▁delay	-3475
▁loves	-3476
▁price	-3477
▁browse	-3478
▁chance	-3479
▁hassle	-3480
▁visual	-3481
dddddddd	-3482
rrrrrrrr	-3483
▁attachments	-3484
tm	-3485
ка	-3486
lic	-3487
▁5.	-3488
▁tt	-3489
▁arm	-3490
▁bed	-3491
▁bin	-3492
▁den	-3493
▁sag	-3494
▁sha	-3495
▁squ	-3496
ester	-3497
▁shot	-3498
▁disco	-3499
▁lacks	-3500
▁pract	-3501
▁saves	-3502
▁stays	-3503
▁troub	-3504
▁ultim	-3505
▁value	-3506
▁course	-3507
▁editor	-3508
▁fixing	-3509
▁noticed	-3510
▁obvious	-3511
▁deactivate	-3512
ji	-3513
😬😬	-3514
aha	-3515
▁ii	-3516
anda	-3517
aste	-3518
ered	-3519
mark	-3520
nice	-3521
▁ill	-3522
▁lal	-3523
▁wal	-3524
😍😍😍😍	-3525
ially	-3526
▁dead	-3527
▁dial	-3528
▁libr	-3529
▁para	-3530
▁prin	-3531
▁pure	-3532
▁rich	-3533
▁sooo	-3534
▁stik	-3535
▁tick	-3536
▁dunge	-3537
▁fault	-3538
▁lower	-3539
▁supar	-3540
▁unlim	-3541
▁bother	-3542
▁instal	-3543
▁shared	-3544
aaaaaaaa	-3545
▁counter	-3546
▁members	-3547
▁somehow	-3548
▁accident	-3549
▁facility	-3550
▁encrypted	-3551
▁reinstalled	-3552
.)	-3553
11	-3554
но	-3555
▁=	-3556
▁😎	-3557
▁24	-3558
▁ly	-3559
▁ban	-3560
▁hat	-3561
▁hay	-3562
▁vin	-3563
endra	-3564
▁conc	-3565
▁mist	-3566
ooting	-3567
▁green	-3568
▁maint	-3569
▁timer	-3570
▁sharma	-3571
▁tekken	-3572
▁wasted	-3573
▁searched	-3574
▁basically	-3575
▁consumption	-3576
60	-3577
rs	-3578
▁س	-3579
▁ह	-3580
▁•	-3581
😄😄	-3582
mod	-3583
ser	-3584
نام	-3585
▁19	-3586
▁;)	-3587
▁wo	-3588
▁ww	-3589
👍👍👍	-3590
ored	-3591
▁air	-3592
▁bey	-3593
▁neg	-3594
▁shi	-3595
▁vib	-3596
ivity	-3597
oring	-3598
ically	-3599
▁grand	-3600
▁closes	-3601
▁messed	-3602
▁further	-3603
▁student	-3604
▁variety	-3605
▁visible	-3606
▁included	-3607
▁navigate	-3608
▁sometime	-3609
▁watching	-3610
▁improving	-3611
▁brightness	-3612
▁impressive	-3613
▁technology	-3614
▁comfortable	-3615
▁и	-3616
▁ی	-3617
che	-3618
iii	-3619
ikh	-3620
len	-3621
now	-3622
una	-3623
vin	-3624
vpn	-3625
wan	-3626
▁11	-3627
▁به	-3628
gest	-3629
khan	-3630
ries	-3631
vide	-3632
▁saw	-3633
cloud	-3634
izing	-3635
▁asus	-3636
▁clip	-3637
player	-3638
▁ahmed	-3639
▁alone	-3640
▁appro	-3641
▁claim	-3642
▁kudos	-3643
▁minor	-3644
▁party	-3645
▁shell	-3646
▁confirm	-3647
▁forcing	-3648
▁hanging	-3649
▁individ	-3650
▁preview	-3651
▁smaller	-3652
▁browsing	-3653
▁resource	-3654
▁switched	-3655
▁delivered	-3656
▁screenshot	-3657
cy	-3658
dis	-3659
gry	-3660
igh	-3661
ler	-3662
sat	-3663
▁db	-3664
ings	-3665
▁bur	-3666
▁dro	-3667
▁gur	-3668
▁tut	-3669
▁baby	-3670
▁mand	-3671
▁roms	-3672
▁vary	-3673
▁avoid	-3674
▁charm	-3675
▁prior	-3676
▁behind	-3677
▁checked	-3678
▁publish	-3679
▁stories	-3680
▁configur	-3681
▁freezing	-3682
▁honestly	-3683
▁scrobble	-3684
▁potential	-3685
▁beautifull	-3686
▁integration	-3687
▁customizable	-3688
88	-3689
:)	-3690
;3	-3691
ho	-3692
wn	-3693
سی	-3694
😊😊	-3695
▁6.	-3696
▁ll	-3697
▁nt	-3698
----	-3699
pppp	-3700
▁bul	-3701
▁kit	-3702
▁rat	-3703
▁twe	-3704
▁win	-3705
aling	-3706
asing	-3707
plays	-3708
▁alam	-3709
▁area	-3710
▁eyes	-3711
▁rout	-3712
▁west	-3713
phones	-3714
▁6.0.1	-3715
▁clock	-3716
▁newer	-3717
▁marvel	-3718
▁middle	-3719
▁unread	-3720
▁yester	-3721
▁artists	-3722
▁disturb	-3723
▁library	-3724
▁exellent	-3725
▁standard	-3726
▁verygood	-3727
▁beginning	-3728
▁customize	-3729
▁disgusting	-3730
................	-3731
56	-3732
👌👌	-3733
😤😤	-3734
bel	-3735
ien	-3736
val	-3737
▁کن	-3738
▁कर	-3739
ians	-3740
ooks	-3741
▁:-(	-3742
▁dil	-3743
▁mel	-3744
▁rev	-3745
aging	-3746
eness	-3747
lling	-3748
▁cast	-3749
▁cond	-3750
action	-3751
isting	-3752
▁ready	-3753
▁sadly	-3754
ational	-3755
▁dragon	-3756
download	-3757
▁becomes	-3758
▁besides	-3759
▁causing	-3760
▁classic	-3761
▁prevent	-3762
▁shutter	-3763
▁subscri	-3764
▁pressing	-3765
▁programs	-3766
▁register	-3767
▁synchron	-3768
▁documents	-3769
▁resources	-3770
▁unlimited	-3771
▁yesterday	-3772
▁interested	-3773
3.	-3774
ni	-3775
po	-3776
▁स	-3777
▁😁	-3778
got	-3779
ope	-3780
▁ep	-3781
▁mk	-3782
▁vv	-3783
▁fly	-3784
▁mir	-3785
▁vik	-3786
iaomi	-3787
▁!!!!	-3788
▁****	-3789
▁kool	-3790
▁mach	-3791
▁nahi	-3792
▁poke	-3793
▁weap	-3794
▁draft	-3795
▁indic	-3796
▁paste	-3797
android	-3798
▁networ	-3799
▁notice	-3800
▁toggle	-3801
▁attempt	-3802
▁dungeon	-3803
▁enjoyed	-3804
▁goooood	-3805
▁oneplus	-3806
▁apparent	-3807
▁challeng	-3808
▁ultimate	-3809
▁intrusive	-3810
0%	-3811
86	-3812
та	-3813
ges	-3814
ima	-3815
▁cm	-3816
▁yu	-3817
cket	-3818
gant	-3819
only	-3820
▁eye	-3821
▁mam	-3822
▁roy	-3823
▁sab	-3824
▁van	-3825
▁yea	-3826
riend	-3827
▁asia	-3828
▁inno	-3829
▁pops	-3830
▁quit	-3831
▁sexy	-3832
ension	-3833
▁board	-3834
▁break	-3835
▁برنام	-3836
▁backed	-3837
▁general	-3838
▁passwords	-3839
▁reference	-3840
:-	-3841
bl	-3842
ра	-3843
▁ف	-3844
aci	-3845
add	-3846
cle	-3847
ech	-3848
hit	-3849
hod	-3850
lad	-3851
uto	-3852
yan	-3853
eren	-3854
when	-3855
▁fps	-3856
▁ups	-3857
▁yay	-3858
sense	-3859
▁cash	-3860
▁goof	-3861
▁hero	-3862
▁hmmm	-3863
▁imag	-3864
▁john	-3865
▁raja	-3866
▁ther	-3867
▁tons	-3868
▁writ	-3869
friend	-3870
▁apply	-3871
▁bekar	-3872
▁ident	-3873
▁islam	-3874
▁known	-3875
▁lists	-3876
▁patel	-3877
▁rocks	-3878
▁slows	-3879
▁beyond	-3880
▁closed	-3881
▁hoping	-3882
▁slower	-3883
▁usable	-3884
▁compare	-3885
▁blocking	-3886
▁checking	-3887
▁playback	-3888
▁pointless	-3889
▁regularly	-3890
▁reinstalling	-3891
ko	-3892
sy	-3893
ть	-3894
💘💘	-3895
!""	-3896
abe	-3897
pls	-3898
vir	-3899
▁??	-3900
▁pi	-3901
call	-3902
lier	-3903
▁ank	-3904
▁dow	-3905
▁hua	-3906
▁joy	-3907
▁mac	-3908
▁mst	-3909
▁mut	-3910
▁nat	-3911
▁raw	-3912
▁wat	-3913
▁این	-3914
😡😡😡😡	-3915
▁band	-3916
▁tank	-3917
▁upon	-3918
aining	-3919
▁frame	-3920
▁rever	-3921
▁aspect	-3922
▁author	-3923
▁deepak	-3924
▁loaded	-3925
▁xiaomi	-3926
▁pokemon	-3927
😣😣😣😣😣😣😣😣	-3928
▁searches	-3929
▁superior	-3930
▁administr	-3931
16	-3932
pg	-3933
ود	-3934
▁о	-3935
▁😂	-3936
:-)	-3937
coz	-3938
cra	-3939
lod	-3940
▁:/	-3941
▁ds	-3942
▁ga	-3943
▁mh	-3944
have	-3945
oood	-3946
▁bon	-3947
▁bub	-3948
▁mms	-3949
inder	-3950
▁body	-3951
▁diss	-3952
▁doub	-3953
▁dude	-3954
▁fill	-3955
▁sang	-3956
hammad	-3957
▁bored	-3958
▁occur	-3959
▁prime	-3960
▁terms	-3961
▁......	-3962
▁crappy	-3963
▁facing	-3964
▁tracks	-3965
▁against	-3966
▁consist	-3967
▁meaning	-3968
▁warning	-3969
▁religion	-3970
▁condition	-3971
bh	-3972
ew	-3973
ле	-3974
ند	-3975
💜💜	-3976
😒😒	-3977
hor	-3978
pre	-3979
rrr	-3980
▁ot	-3981
apps	-3982
cape	-3983
▁500	-3984
▁hhh	-3985
▁thn	-3986
azing	-3987
known	-3988
▁amit	-3989
▁bast	-3990
▁chut	-3991
▁geni	-3992
▁loll	-3993
▁7.1.1	-3994
▁analy	-3995
▁fight	-3996
▁fixes	-3997
▁hindi	-3998
▁innov	-3999
▁round	-4000
▁amazon	-4001
▁bigger	-4002
▁corner	-4003
▁events	-4004
▁method	-4005
▁public	-4006
▁برنامه	-4007
▁capture	-4008
▁knowing	-4009
▁monster	-4010
▁operate	-4011
▁pending	-4012
▁advanced	-4013
▁hangouts	-4014
▁complaint	-4015
▁scrolling	-4016
▁complaints	-4017
▁personally	-4018
▁appreciated	-4019
▁possibility	-4020
unfortunately	-4021
-9	-4022
7.	-4023
gi	-4024
▁ل	-4025
alu	-4026
mal	-4027
▁hj	-4028
▁lv	-4029
▁не	-4030
alid	-4031
even	-4032
ring	-4033
with	-4034
▁gig	-4035
▁kde	-4036
▁paw	-4037
😠😠😠😠	-4038
great	-4039
▁cred	-4040
▁okey	-4041
▁sant	-4042
▁suff	-4043
▁blank	-4044
▁slight	-4045
▁submit	-4046
hhhhhhhh	-4047
▁destroy	-4048
▁killing	-4049
▁finished	-4050
▁lollipop	-4051
▁nonsense	-4052
▁displayed	-4053
▁awesomeness	-4054
▁conversations	-4055
න්	-4056
😃😃	-4057
aya	-4058
ley	-4059
wei	-4060
▁va	-4061
▁xd	-4062
▁هم	-4063
ahah	-4064
best	-4065
▁cat	-4066
▁nhi	-4067
▁pas	-4068
▁ppl	-4069
▁ugh	-4070
books	-4071
dated	-4072
▁aaps	-4073
▁acha	-4074
▁cute	-4075
▁ease	-4076
▁leav	-4077
▁rana	-4078
▁droid	-4079
▁heard	-4080
▁krish	-4081
▁rules	-4082
▁soooo	-4083
▁accept	-4084
▁became	-4085
▁breaks	-4086
▁covers	-4087
▁hunter	-4088
▁levels	-4089
▁earlier	-4090
▁elegant	-4091
▁letting	-4092
▁resolve	-4093
▁texting	-4094
▁photograp	-4095
▁questions	-4096
▁reminders	-4097
▁specially	-4098
▁disconnect	-4099
▁disappointing	-4100
اد	-4101
▁😀	-4102
bra	-4103
ged	-4104
ker	-4105
pal	-4106
uls	-4107
une	-4108
▁16	-4109
▁تل	-4110
ends	-4111
etic	-4112
ided	-4113
oned	-4114
گرام	-4115
▁ara	-4116
▁dav	-4117
▁div	-4118
▁hur	-4119
▁jag	-4120
▁mid	-4121
atory	-4122
earch	-4123
loved	-4124
▁buff	-4125
▁empt	-4126
▁heck	-4127
▁init	-4128
▁lame	-4129
▁mini	-4130
screen	-4131
▁blood	-4132
▁bravo	-4133
▁magic	-4134
▁occas	-4135
▁offer	-4136
▁orbot	-4137
▁advent	-4138
▁huawei	-4139
▁object	-4140
▁points	-4141
▁transl	-4142
▁busybox	-4143
▁closing	-4144
▁dislike	-4145
▁reports	-4146
▁unknown	-4147
.........	-4148
▁communic	-4149
▁research	-4150
▁crossword	-4151
▁emulators	-4152
▁instantly	-4153
▁troublesh	-4154
▁controller	-4155
▁management	-4156
▁resolution	-4157
▁supporting	-4158
!?	-4159
13	-4160
ds	-4161
jo	-4162
sm	-4163
uf	-4164
ón	-4165
▁ब	-4166
gam	-4167
gar	-4168
iev	-4169
ila	-4170
▁14	-4171
▁ek	-4172
▁jj	-4173
▁mc	-4174
lect	-4175
open	-4176
ores	-4177
▁mai	-4178
▁pil	-4179
droid	-4180
▁base	-4181
▁boom	-4182
▁epic	-4183
▁fool	-4184
▁joke	-4185
▁prec	-4186
▁weak	-4187
▁apart	-4188
▁aplik	-4189
▁chart	-4190
▁cover	-4191
▁sched	-4192
▁thanx	-4193
install	-4194
▁brings	-4195
▁offers	-4196
▁sanjay	-4197
▁advance	-4198
▁backing	-4199
▁clients	-4200
▁messeng	-4201
▁viewing	-4202
▁........	-4203
▁customer	-4204
▁gooooood	-4205
▁negative	-4206
▁everybody	-4207
▁accessible	-4208
▁challenging	-4209
▁goooooooooooo	-4210
19	-4211
▁🌟	-4212
▁😘	-4213
cha	-4214
din	-4215
eep	-4216
son	-4217
▁2)	-4218
▁7.	-4219
▁ku	-4220
▁من	-4221
iran	-4222
▁cos	-4223
▁pen	-4224
▁spr	-4225
▁ton	-4226
ading	-4227
illed	-4228
least	-4229
▁chan	-4230
▁mens	-4231
▁vish	-4232
arting	-4233
▁ahmad	-4234
▁inbox	-4235
▁motor	-4236
▁proud	-4237
▁skype	-4238
▁thous	-4239
▁affect	-4240
▁caused	-4241
▁forces	-4242
▁forgot	-4243
▁inside	-4244
▁missed	-4245
▁perman	-4246
▁termux	-4247
▁tested	-4248
▁theres	-4249
▁greatly	-4250
▁recover	-4251
▁activate	-4252
▁products	-4253
▁repeated	-4254
▁character	-4255
▁languages	-4256
▁providing	-4257
▁additional	-4258
▁individual	-4259
▁responsive	-4260
▁restarting	-4261
2.	-4262
24	-4263
dj	-4264
of	-4265
ко	-4266
شه	-4267
▁چ	-4268
adi	-4269
ato	-4270
bal	-4271
mmm	-4272
pet	-4273
pur	-4274
▁et	-4275
▁ts	-4276
anta	-4277
haps	-4278
illa	-4279
nail	-4280
pass	-4281
that	-4282
▁150	-4283
▁btw	-4284
▁fon	-4285
▁los	-4286
▁pad	-4287
▁sai	-4288
▁zen	-4289
👏👏👏👏	-4290
eared	-4291
ision	-4292
lenty	-4293
video	-4294
▁bisa	-4295
▁disc	-4296
▁flex	-4297
▁fore	-4298
▁kash	-4299
▁temp	-4300
▁wide	-4301
▁aband	-4302
▁ahead	-4303
▁idiot	-4304
▁memor	-4305
▁moved	-4306
▁spend	-4307
▁عالیه	-4308
▁hacked	-4309
▁plenty	-4310
▁letters	-4311
▁utility	-4312
▁allowing	-4313
▁accidentally	-4314
▁verification	-4315
14	-4316
55	-4317
^^	-4318
uh	-4319
ão	-4320
▁[	-4321
azy	-4322
cel	-4323
den	-4324
ene	-4325
pat	-4326
por	-4327
▁از	-4328
mbol	-4329
▁nas	-4330
▁num	-4331
▁pag	-4332
▁tha	-4333
▁url	-4334
cause	-4335
ished	-4336
▁bcoz	-4337
▁dual	-4338
▁fall	-4339
▁four	-4340
▁unst	-4341
▁veri	-4342
▁10/10	-4343
▁field	-4344
▁house	-4345
▁ilike	-4346
▁lucky	-4347
▁owner	-4348
▁radio	-4349
forward	-4350
▁flight	-4351
▁loveit	-4352
▁showed	-4353
▁speech	-4354
▁تلگرام	-4355
▁atleast	-4356
▁cleared	-4357
▁million	-4358
▁secured	-4359
▁testing	-4360
▁activity	-4361
▁document	-4362
▁frequent	-4363
▁memories	-4364
▁provided	-4365
▁username	-4366
▁community	-4367
▁extension	-4368
▁characters	-4369
▁difference	-4370
▁everywhere	-4371
▁incredibly	-4372
▁beautifully	-4373
fm	-4374
yo	-4375
▁प	-4376
▁♥	-4377
😠😡	-4378
ars	-4379
els	-4380
jit	-4381
lin	-4382
lla	-4383
ren	-4384
▁ol	-4385
alam	-4386
alog	-4387
ists	-4388
▁5.0	-4389
▁ber	-4390
▁hog	-4391
▁jes	-4392
▁mun	-4393
▁noo	-4394
itter	-4395
stars	-4396
utter	-4397
▁ages	-4398
▁bare	-4399
▁bhar	-4400
▁butt	-4401
▁foot	-4402
▁miui	-4403
▁supr	-4404
▁unre	-4405
▁below	-4406
▁catch	-4407
▁earth	-4408
▁empty	-4409
▁likes	-4410
▁sunil	-4411
▁types	-4412
unction	-4413
▁genius	-4414
▁handle	-4415
▁losing	-4416
▁notify	-4417
▁places	-4418
▁rakesh	-4419
▁symbol	-4420
▁easiest	-4421
▁indians	-4422
▁mistake	-4423
▁openvpn	-4424
▁percent	-4425
▁pleased	-4426
▁servers	-4427
▁subject	-4428
▁welcome	-4429
▁clicking	-4430
▁displays	-4431
▁purchase	-4432
▁continues	-4433
▁developed	-4434
▁exception	-4435
▁obviously	-4436
▁activities	-4437
▁googleplay	-4438
▁perfection	-4439
▁wallpapers	-4440
30	-4441
fl	-4442
ife	-4443
ika	-4444
log	-4445
oni	-4446
row	-4447
ttt	-4448
ule	-4449
▁ri	-4450
ball	-4451
gged	-4452
keep	-4453
ured	-4454
zzzz	-4455
▁bcz	-4456
▁grt	-4457
▁kal	-4458
▁lik	-4459
▁sen	-4460
▁yep	-4461
▁yup	-4462
ailed	-4463
ament	-4464
▁chin	-4465
▁deck	-4466
▁jump	-4467
▁poop	-4468
▁shad	-4469
▁shin	-4470
▁thak	-4471
▁tiny	-4472
▁armor	-4473
▁peace	-4474
▁dialog	-4475
▁freeze	-4476
▁ruined	-4477
▁sucked	-4478
▁thinks	-4479
▁travel	-4480
▁biggest	-4481
▁excited	-4482
▁perhaps	-4483
▁spyware	-4484
▁category	-4485
▁confused	-4486
▁scanning	-4487
▁amazingly	-4488
▁marvelous	-4489
▁messanger	-4490
▁thumbnail	-4491
▁upgrading	-4492
▁wondering	-4493
▁capability	-4494
▁disturbing	-4495
▁multiplayer	-4496
++	-4497
77	-4498
oc	-4499
ما	-4500
▁ح	-4501
☺☺	-4502
fix	-4503
gen	-4504
▁2-	-4505
▁در	-4506
$$$$	-4507
▁led	-4508
▁muy	-4509
▁sig	-4510
▁sip	-4511
▁tar	-4512
▁vid	-4513
craft	-4514
orial	-4515
▁kids	-4516
▁oppo	-4517
▁redd	-4518
▁road	-4519
▁snoo	-4520
▁sonu	-4521
▁thik	-4522
believ	-4523
▁agree	-4524
▁avare	-4525
▁incon	-4526
▁lands	-4527
▁migli	-4528
▁rohit	-4529
▁sonic	-4530
▁viber	-4531
▁buying	-4532
▁cheers	-4533
▁likely	-4534
▁pocket	-4535
▁repeat	-4536
▁sensor	-4537
▁anytime	-4538
▁choices	-4539
▁compass	-4540
▁concern	-4541
▁greater	-4542
▁imagine	-4543
▁refuses	-4544
▁tracker	-4545
▁connects	-4546
▁emulater	-4547
▁occupies	-4548
▁possibly	-4549
▁tutorial	-4550
▁audiobook	-4551
▁clipboard	-4552
▁apparently	-4553
▁gooooooood	-4554
ssssssssssssssss	-4555
15	-4556
cs	-4557
hr	-4558
че	-4559
تر	-4560
یر	-4561
▁ज	-4562
▁😉	-4563
att	-4564
gal	-4565
rar	-4566
rib	-4567
ric	-4568
sec	-4569
sin	-4570
ura	-4571
یلی	-4572
▁1)	-4573
▁49	-4574
▁пр	-4575
▁👌👌	-4576
soft	-4577
▁ain	-4578
▁apt	-4579
▁bye	-4580
▁cir	-4581
▁dad	-4582
▁deb	-4583
▁nin	-4584
▁pes	-4585
▁است	-4586
plete	-4587
which	-4588
▁moon	-4589
▁onto	-4590
▁sell	-4591
▁shak	-4592
▁wear	-4593
▁child	-4594
▁doubt	-4595
▁eater	-4596
▁excel	-4597
▁freed	-4598
▁goole	-4599
▁human	-4600
▁invas	-4601
▁kills	-4602
▁malik	-4603
▁paper	-4604
awesome	-4605
▁bubble	-4606
▁compar	-4607
▁insult	-4608
▁	-4609
e	-4610
t	-4611
o	-4612
a	-4613
i	-4614
s	-4615
n	-4616
r	-4617
l	-4618
d	-4619
p	-4620
h	-4621
u	-4622
g	-4623
c	-4624
m	-4625
y	-4626
w	-4627
.	-4628
f	-4629
b	-4630
v	-4631
k	-4632
'	-4633
!	-4634
"	-4635
x	-4636
j	-4637
z	-4638
?	-4639
1	-4640
0	-4641
-	-4642
q	-4643
2	-4644
5	-4645
)	-4646
:	-4647
(	-4648
3	-4649
4	-4650
ا	-4651
/	-4652
*	-4653
7	-4654
6	-4655
&	-4656
9	-4657
ی	-4658
8	-4659
👍	-4660
ر	-4661
م	-4662
ن	-4663
و	-4664
ه	-4665
;	-4666
ل	-4667
د	-4668
@	-4669
😍	-4670
ب	-4671
ت	-4672
о	-4673
😣	-4674
+	-4675
е	-4676
а	-4677
😠	-4678
😊	-4679
❤	-4680
👌	-4681
😡	-4682
س	-4683
👎	-4684
%	-4685
😘	-4686
$	-4687
ش	-4688
и	-4689
#	-4690
н	-4691
_	-4692
т	-4693
ک	-4694
😂	-4695
😁	-4696
😀	-4697
ع	-4698
☺	-4699
с	-4700
👏	-4701
े	-4702
😈	-4703
ा	-4704
خ	-4705
к	-4706
р	-4707
л	-4708
😄	-4709
в	-4710
र	-4711
ز	-4712
क	-4713
💜	-4714
گ	-4715
😃	-4716
ف	-4717
=	-4718
😙	-4719
😬	-4720
^	-4721
😎	-4722
😉	-4723
😤	-4724
😒	-4725
м	-4726
п	-4727
ي	-4728
ق	-4729
न	-4730
💘	-4731
♥	-4732
д	-4733
ج	-4734
é	-4735
♡	-4736
ह	-4737
म	-4738
😭	-4739
ी	-4740
😢	-4741
स	-4742
प	-4743
я	-4744
ы	-4745
න	-4746
ь	-4747
😑	-4748
ो	-4749
්	-4750
्	-4751
ч	-4752
з	-4753
ح	-4754
😥	-4755
🌟	-4756
💙	-4757
ल	-4758
у	-4759
★	-4760
💖	-4761
ص	-4762
त	-4763
🙏	-4764
á	-4765
ó	-4766
б	-4767
ि	-4768
ज	-4769
😱	-4770
💩	-4771
😏	-4772
•	-4773
í	-4774
پ	-4775
☆	-4776
😐	-4777
👿	-4778
😕	-4779
ब	-4780
[	-4781
ط	-4782
🙌	-4783
ं	-4784
✌	-4785
😇	-4786
😅	-4787
چ	-4788
😆	-4789
~	-4790
ै	-4791
ක	-4792
💗	-4793
😞	-4794
ç	-4795
ම	-4796
à	-4797
്	-4798
ྂ	-4799
]	-4800
è	-4801
ك	-4802
💕	-4803
ර	-4804
💯	-4805
г	-4806
،	-4807
ж	-4808
\	-4809
ग	-4810
य	-4811
😚	-4812
🎀	-4813
ã	-4814
্	-4815
й	-4816
व	-4817
😋	-4818
😜	-4819
😳	-4820
ü	-4821
ă	-4822
।	-4823
😝	-4824
द	-4825
ड	-4826
র	-4827
ව	-4828
💋	-4829
ю	-4830
इ	-4831
🎮	-4832
ä	-4833
ट	-4834
ි	-4835
ු	-4836
️	-4837
💚	-4838
х	-4839
>	-4840
­	-4841
आ	-4842
च	-4843
ु	-4844
🌻	-4845
💪	-4846
😲	-4847
ɛ	-4848
ক	-4849
💏	-4850
🔥	-4851
ة	-4852
া	-4853
🤔	-4854
`	-4855
|	-4856
؟	-4857
ض	-4858
ـ	-4859
ন	-4860
🇮	-4861
🖕	-4862
😫	-4863
अ	-4864
ظ	-4865
ා	-4866
’	-4867
🌀	-4868
💨	-4869
ț	-4870
ে	-4871
☁	-4872
🐰	-4873
🙂	-4874
ذ	-4875
္	-4876
🌹	-4877
😔	-4878
î	-4879
ේ	-4880
آ	-4881
ए	-4882
ന	-4883
🎅	-4884
😦	-4885
🙁	-4886
ö	-4887
ù	-4888
غ	-4889
ি	-4890
▶	-4891
🐱	-4892
🔴	-4893
ф	-4894
ද	-4895
ප	-4896
💎	-4897
🤗	-4898
¡	-4899
ɨ	-4900
ौ	-4901
ෙ	-4902
း	-4903
🍸	-4904
👑	-4905
<	-4906
ш	-4907
ث	-4908
স	-4909
ി	-4910
ස	-4911
👊	-4912
💀	-4913
😴	-4914
🙄	-4915
ı	-4916
ख	-4917
ল	-4918
က	-4919
👆	-4920
👉	-4921
💔	-4922
💛	-4923
💰	-4924
ò	-4925
օ	-4926
ू	-4927
–	-4928
⭐	-4929
👻	-4930
💞	-4931
ñ	-4932
ú	-4933
भ	-4934
ত	-4935
ব	-4936
ാ	-4937
ට	-4938
හ	-4939
🏻	-4940
😵	-4941
ռ	-4942
🇷	-4943
💝	-4944
😩	-4945
»	-4946
ئ	-4947
फ	-4948
್	-4949
ര	-4950
ာ	-4951
👰	-4952
💥	-4953
😓	-4954
😨	-4955
😷	-4956
🙅	-4957
औ	-4958
ക	-4959
ය	-4960
✨	-4961
💓	-4962
😻	-4963
°	-4964
ê	-4965
ș	-4966
э	-4967
श	-4968
ু	-4969
ല	-4970
අ	-4971
එ	-4972
ေ	-4973
🇸	-4974
🇺	-4975
💐	-4976
õ	-4977
़	-4978
പ	-4979
യ	-4980
ു	-4981
☝	-4982
✔	-4983
📢	-4984
😗	-4985
ι	-4986
σ	-4987
ড	-4988
ো	-4989
ත	-4990
ල	-4991
ိ	-4992
“	-4993
⚠	-4994
💟	-4995
